memory_initialization_radix=16;
memory_initialization_vector=
00000000,
00008000,
00010000,
00018000,
00020000,
00028000,
00030000,
00038000,
00008000,
00010000,
00018000,
00020000,
00028000,
00030000,
00038000,
00040000,
00010000,
00018000,
00020000,
00028000,
00030000,
00038000,
00040000,
00048000,
00018000,
00020000,
00028000,
00030000,
00038000,
00040000,
00048000,
00050000,
00020000,
00028000,
00030000,
00038000,
00040000,
00048000,
00050000,
00058000,
00028000,
00030000,
00038000,
00040000,
00048000,
00050000,
00058000,
00060000,
00030000,
00038000,
00040000,
00048000,
00050000,
00058000,
00060000,
00068000,
00038000,
00040000,
00048000,
00050000,
00058000,
00060000,
00068000,
00070000,
00008000,
00010000,
00018000,
00020000,
00028000,
00030000,
00038000,
00040000,
00010000,
00018000,
00020000,
00028000,
00030000,
00038000,
00040000,
00048000,
00018000,
00020000,
00028000,
00030000,
00038000,
00040000,
00048000,
00050000,
00020000,
00028000,
00030000,
00038000,
00040000,
00048000,
00050000,
00058000,
00028000,
00030000,
00038000,
00040000,
00048000,
00050000,
00058000,
00060000,
00030000,
00038000,
00040000,
00048000,
00050000,
00058000,
00060000,
00068000,
00038000,
00040000,
00048000,
00050000,
00058000,
00060000,
00068000,
00070000,
00040000,
00048000,
00050000,
00058000,
00060000,
00068000,
00070000,
00078000,
00010000,
00018000,
00020000,
00028000,
00030000,
00038000,
00040000,
00048000,
00018000,
00020000,
00028000,
00030000,
00038000,
00040000,
00048000,
00050000,
00020000,
00028000,
00030000,
00038000,
00040000,
00048000,
00050000,
00058000,
00028000,
00030000,
00038000,
00040000,
00048000,
00050000,
00058000,
00060000,
00030000,
00038000,
00040000,
00048000,
00050000,
00058000,
00060000,
00068000,
00038000,
00040000,
00048000,
00050000,
00058000,
00060000,
00068000,
00070000,
00040000,
00048000,
00050000,
00058000,
00060000,
00068000,
00070000,
00078000,
00048000,
00050000,
00058000,
00060000,
00068000,
00070000,
00078000,
00080000,
00018000,
00020000,
00028000,
00030000,
00038000,
00040000,
00048000,
00050000,
00020000,
00028000,
00030000,
00038000,
00040000,
00048000,
00050000,
00058000,
00028000,
00030000,
00038000,
00040000,
00048000,
00050000,
00058000,
00060000,
00030000,
00038000,
00040000,
00048000,
00050000,
00058000,
00060000,
00068000,
00038000,
00040000,
00048000,
00050000,
00058000,
00060000,
00068000,
00070000,
00040000,
00048000,
00050000,
00058000,
00060000,
00068000,
00070000,
00078000,
00048000,
00050000,
00058000,
00060000,
00068000,
00070000,
00078000,
00080000,
00050000,
00058000,
00060000,
00068000,
00070000,
00078000,
00080000,
00088000,
00020000,
00028000,
00030000,
00038000,
00040000,
00048000,
00050000,
00058000,
00028000,
00030000,
00038000,
00040000,
00048000,
00050000,
00058000,
00060000,
00030000,
00038000,
00040000,
00048000,
00050000,
00058000,
00060000,
00068000,
00038000,
00040000,
00048000,
00050000,
00058000,
00060000,
00068000,
00070000,
00040000,
00048000,
00050000,
00058000,
00060000,
00068000,
00070000,
00078000,
00048000,
00050000,
00058000,
00060000,
00068000,
00070000,
00078000,
00080000,
00050000,
00058000,
00060000,
00068000,
00070000,
00078000,
00080000,
00088000,
00058000,
00060000,
00068000,
00070000,
00078000,
00080000,
00088000,
00090000,
00028000,
00030000,
00038000,
00040000,
00048000,
00050000,
00058000,
00060000,
00030000,
00038000,
00040000,
00048000,
00050000,
00058000,
00060000,
00068000,
00038000,
00040000,
00048000,
00050000,
00058000,
00060000,
00068000,
00070000,
00040000,
00048000,
00050000,
00058000,
00060000,
00068000,
00070000,
00078000,
00048000,
00050000,
00058000,
00060000,
00068000,
00070000,
00078000,
00080000,
00050000,
00058000,
00060000,
00068000,
00070000,
00078000,
00080000,
00088000,
00058000,
00060000,
00068000,
00070000,
00078000,
00080000,
00088000,
00090000,
00060000,
00068000,
00070000,
00078000,
00080000,
00088000,
00090000,
00098000,
00030000,
00038000,
00040000,
00048000,
00050000,
00058000,
00060000,
00068000,
00038000,
00040000,
00048000,
00050000,
00058000,
00060000,
00068000,
00070000,
00040000,
00048000,
00050000,
00058000,
00060000,
00068000,
00070000,
00078000,
00048000,
00050000,
00058000,
00060000,
00068000,
00070000,
00078000,
00080000,
00050000,
00058000,
00060000,
00068000,
00070000,
00078000,
00080000,
00088000,
00058000,
00060000,
00068000,
00070000,
00078000,
00080000,
00088000,
00090000,
00060000,
00068000,
00070000,
00078000,
00080000,
00088000,
00090000,
00098000,
00068000,
00070000,
00078000,
00080000,
00088000,
00090000,
00098000,
000a0000,
00038000,
00040000,
00048000,
00050000,
00058000,
00060000,
00068000,
00070000,
00040000,
00048000,
00050000,
00058000,
00060000,
00068000,
00070000,
00078000,
00048000,
00050000,
00058000,
00060000,
00068000,
00070000,
00078000,
00080000,
00050000,
00058000,
00060000,
00068000,
00070000,
00078000,
00080000,
00088000,
00058000,
00060000,
00068000,
00070000,
00078000,
00080000,
00088000,
00090000,
00060000,
00068000,
00070000,
00078000,
00080000,
00088000,
00090000,
00098000,
00068000,
00070000,
00078000,
00080000,
00088000,
00090000,
00098000,
000a0000,
00070000,
00078000,
00080000,
00088000,
00090000,
00098000,
000a0000,
000a8000;