memory_initialization_radix=16;
memory_initialization_vector=
00000000,
00008000,
00010000,
00018000,
00020000,
00000000,
00000000,
00000000,
00008000,
00010000,
00018000,
00020000,
00028000,
00000000,
00000000,
00000000,
00010000,
00018000,
00020000,
00028000,
00030000,
00000000,
00000000,
00000000,
00018000,
00020000,
00028000,
00030000,
00038000,
00000000,
00000000,
00000000,
00020000,
00028000,
00030000,
00038000,
00040000,
00000000,
00000000,
00000000,
00000000,
00000000,
00000000,
00000000,
00000000,
00000000,
00000000,
00000000,
00000000,
00000000,
00000000,
00000000,
00000000,
00000000,
00000000,
00000000,
00000000,
00000000,
00000000,
00000000,
00000000,
00000000,
00000000,
00000000,
00008000,
00010000,
00018000,
00020000,
00028000,
00000000,
00000000,
00000000,
00010000,
00018000,
00020000,
00028000,
00030000,
00000000,
00000000,
00000000,
00018000,
00020000,
00028000,
00030000,
00038000,
00000000,
00000000,
00000000,
00020000,
00028000,
00030000,
00038000,
00040000,
00000000,
00000000,
00000000,
00028000,
00030000,
00038000,
00040000,
00048000,
00000000,
00000000,
00000000,
00000000,
00000000,
00000000,
00000000,
00000000,
00000000,
00000000,
00000000,
00000000,
00000000,
00000000,
00000000,
00000000,
00000000,
00000000,
00000000,
00000000,
00000000,
00000000,
00000000,
00000000,
00000000,
00000000,
00000000,
00010000,
00018000,
00020000,
00028000,
00030000,
00000000,
00000000,
00000000,
00018000,
00020000,
00028000,
00030000,
00038000,
00000000,
00000000,
00000000,
00020000,
00028000,
00030000,
00038000,
00040000,
00000000,
00000000,
00000000,
00028000,
00030000,
00038000,
00040000,
00048000,
00000000,
00000000,
00000000,
00030000,
00038000,
00040000,
00048000,
00050000,
00000000,
00000000,
00000000,
00000000,
00000000,
00000000,
00000000,
00000000,
00000000,
00000000,
00000000,
00000000,
00000000,
00000000,
00000000,
00000000,
00000000,
00000000,
00000000,
00000000,
00000000,
00000000,
00000000,
00000000,
00000000,
00000000,
00000000,
00018000,
00020000,
00028000,
00030000,
00038000,
00000000,
00000000,
00000000,
00020000,
00028000,
00030000,
00038000,
00040000,
00000000,
00000000,
00000000,
00028000,
00030000,
00038000,
00040000,
00048000,
00000000,
00000000,
00000000,
00030000,
00038000,
00040000,
00048000,
00050000,
00000000,
00000000,
00000000,
00038000,
00040000,
00048000,
00050000,
00058000,
00000000,
00000000,
00000000,
00000000,
00000000,
00000000,
00000000,
00000000,
00000000,
00000000,
00000000,
00000000,
00000000,
00000000,
00000000,
00000000,
00000000,
00000000,
00000000,
00000000,
00000000,
00000000,
00000000,
00000000,
00000000,
00000000,
00000000,
00020000,
00028000,
00030000,
00038000,
00040000,
00000000,
00000000,
00000000,
00028000,
00030000,
00038000,
00040000,
00048000,
00000000,
00000000,
00000000,
00030000,
00038000,
00040000,
00048000,
00050000,
00000000,
00000000,
00000000,
00038000,
00040000,
00048000,
00050000,
00058000,
00000000,
00000000,
00000000,
00040000,
00048000,
00050000,
00058000,
00060000,
00000000,
00000000,
00000000,
00000000,
00000000,
00000000,
00000000,
00000000,
00000000,
00000000,
00000000,
00000000,
00000000,
00000000,
00000000,
00000000,
00000000,
00000000,
00000000,
00000000,
00000000,
00000000,
00000000,
00000000,
00000000,
00000000,
00000000,
00028000,
00030000,
00038000,
00040000,
00048000,
00000000,
00000000,
00000000,
00030000,
00038000,
00040000,
00048000,
00050000,
00000000,
00000000,
00000000,
00038000,
00040000,
00048000,
00050000,
00058000,
00000000,
00000000,
00000000,
00040000,
00048000,
00050000,
00058000,
00060000,
00000000,
00000000,
00000000,
00048000,
00050000,
00058000,
00060000,
00068000,
00000000,
00000000,
00000000,
00000000,
00000000,
00000000,
00000000,
00000000,
00000000,
00000000,
00000000,
00000000,
00000000,
00000000,
00000000,
00000000,
00000000,
00000000,
00000000,
00000000,
00000000,
00000000,
00000000,
00000000,
00000000,
00000000,
00000000,
00030000,
00038000,
00040000,
00048000,
00050000,
00000000,
00000000,
00000000,
00038000,
00040000,
00048000,
00050000,
00058000,
00000000,
00000000,
00000000,
00040000,
00048000,
00050000,
00058000,
00060000,
00000000,
00000000,
00000000,
00048000,
00050000,
00058000,
00060000,
00068000,
00000000,
00000000,
00000000,
00050000,
00058000,
00060000,
00068000,
00070000,
00000000,
00000000,
00000000,
00000000,
00000000,
00000000,
00000000,
00000000,
00000000,
00000000,
00000000,
00000000,
00000000,
00000000,
00000000,
00000000,
00000000,
00000000,
00000000,
00000000,
00000000,
00000000,
00000000,
00000000,
00000000,
00000000,
00000000,
00038000,
00040000,
00048000,
00050000,
00058000,
00000000,
00000000,
00000000,
00040000,
00048000,
00050000,
00058000,
00060000,
00000000,
00000000,
00000000,
00048000,
00050000,
00058000,
00060000,
00068000,
00000000,
00000000,
00000000,
00050000,
00058000,
00060000,
00068000,
00070000,
00000000,
00000000,
00000000,
00058000,
00060000,
00068000,
00070000,
00078000,
00000000,
00000000,
00000000,
00000000,
00000000,
00000000,
00000000,
00000000,
00000000,
00000000,
00000000,
00000000,
00000000,
00000000,
00000000,
00000000,
00000000,
00000000,
00000000,
00000000,
00000000,
00000000,
00000000,
00000000,
00000000,
00000000,
00000000,
00008000,
00010000,
00018000,
00020000,
00028000,
00000000,
00000000,
00000000,
00010000,
00018000,
00020000,
00028000,
00030000,
00000000,
00000000,
00000000,
00018000,
00020000,
00028000,
00030000,
00038000,
00000000,
00000000,
00000000,
00020000,
00028000,
00030000,
00038000,
00040000,
00000000,
00000000,
00000000,
00028000,
00030000,
00038000,
00040000,
00048000,
00000000,
00000000,
00000000,
00000000,
00000000,
00000000,
00000000,
00000000,
00000000,
00000000,
00000000,
00000000,
00000000,
00000000,
00000000,
00000000,
00000000,
00000000,
00000000,
00000000,
00000000,
00000000,
00000000,
00000000,
00000000,
00000000,
00000000,
00010000,
00018000,
00020000,
00028000,
00030000,
00000000,
00000000,
00000000,
00018000,
00020000,
00028000,
00030000,
00038000,
00000000,
00000000,
00000000,
00020000,
00028000,
00030000,
00038000,
00040000,
00000000,
00000000,
00000000,
00028000,
00030000,
00038000,
00040000,
00048000,
00000000,
00000000,
00000000,
00030000,
00038000,
00040000,
00048000,
00050000,
00000000,
00000000,
00000000,
00000000,
00000000,
00000000,
00000000,
00000000,
00000000,
00000000,
00000000,
00000000,
00000000,
00000000,
00000000,
00000000,
00000000,
00000000,
00000000,
00000000,
00000000,
00000000,
00000000,
00000000,
00000000,
00000000,
00000000,
00018000,
00020000,
00028000,
00030000,
00038000,
00000000,
00000000,
00000000,
00020000,
00028000,
00030000,
00038000,
00040000,
00000000,
00000000,
00000000,
00028000,
00030000,
00038000,
00040000,
00048000,
00000000,
00000000,
00000000,
00030000,
00038000,
00040000,
00048000,
00050000,
00000000,
00000000,
00000000,
00038000,
00040000,
00048000,
00050000,
00058000,
00000000,
00000000,
00000000,
00000000,
00000000,
00000000,
00000000,
00000000,
00000000,
00000000,
00000000,
00000000,
00000000,
00000000,
00000000,
00000000,
00000000,
00000000,
00000000,
00000000,
00000000,
00000000,
00000000,
00000000,
00000000,
00000000,
00000000,
00020000,
00028000,
00030000,
00038000,
00040000,
00000000,
00000000,
00000000,
00028000,
00030000,
00038000,
00040000,
00048000,
00000000,
00000000,
00000000,
00030000,
00038000,
00040000,
00048000,
00050000,
00000000,
00000000,
00000000,
00038000,
00040000,
00048000,
00050000,
00058000,
00000000,
00000000,
00000000,
00040000,
00048000,
00050000,
00058000,
00060000,
00000000,
00000000,
00000000,
00000000,
00000000,
00000000,
00000000,
00000000,
00000000,
00000000,
00000000,
00000000,
00000000,
00000000,
00000000,
00000000,
00000000,
00000000,
00000000,
00000000,
00000000,
00000000,
00000000,
00000000,
00000000,
00000000,
00000000,
00028000,
00030000,
00038000,
00040000,
00048000,
00000000,
00000000,
00000000,
00030000,
00038000,
00040000,
00048000,
00050000,
00000000,
00000000,
00000000,
00038000,
00040000,
00048000,
00050000,
00058000,
00000000,
00000000,
00000000,
00040000,
00048000,
00050000,
00058000,
00060000,
00000000,
00000000,
00000000,
00048000,
00050000,
00058000,
00060000,
00068000,
00000000,
00000000,
00000000,
00000000,
00000000,
00000000,
00000000,
00000000,
00000000,
00000000,
00000000,
00000000,
00000000,
00000000,
00000000,
00000000,
00000000,
00000000,
00000000,
00000000,
00000000,
00000000,
00000000,
00000000,
00000000,
00000000,
00000000,
00030000,
00038000,
00040000,
00048000,
00050000,
00000000,
00000000,
00000000,
00038000,
00040000,
00048000,
00050000,
00058000,
00000000,
00000000,
00000000,
00040000,
00048000,
00050000,
00058000,
00060000,
00000000,
00000000,
00000000,
00048000,
00050000,
00058000,
00060000,
00068000,
00000000,
00000000,
00000000,
00050000,
00058000,
00060000,
00068000,
00070000,
00000000,
00000000,
00000000,
00000000,
00000000,
00000000,
00000000,
00000000,
00000000,
00000000,
00000000,
00000000,
00000000,
00000000,
00000000,
00000000,
00000000,
00000000,
00000000,
00000000,
00000000,
00000000,
00000000,
00000000,
00000000,
00000000,
00000000,
00038000,
00040000,
00048000,
00050000,
00058000,
00000000,
00000000,
00000000,
00040000,
00048000,
00050000,
00058000,
00060000,
00000000,
00000000,
00000000,
00048000,
00050000,
00058000,
00060000,
00068000,
00000000,
00000000,
00000000,
00050000,
00058000,
00060000,
00068000,
00070000,
00000000,
00000000,
00000000,
00058000,
00060000,
00068000,
00070000,
00078000,
00000000,
00000000,
00000000,
00000000,
00000000,
00000000,
00000000,
00000000,
00000000,
00000000,
00000000,
00000000,
00000000,
00000000,
00000000,
00000000,
00000000,
00000000,
00000000,
00000000,
00000000,
00000000,
00000000,
00000000,
00000000,
00000000,
00000000,
00040000,
00048000,
00050000,
00058000,
00060000,
00000000,
00000000,
00000000,
00048000,
00050000,
00058000,
00060000,
00068000,
00000000,
00000000,
00000000,
00050000,
00058000,
00060000,
00068000,
00070000,
00000000,
00000000,
00000000,
00058000,
00060000,
00068000,
00070000,
00078000,
00000000,
00000000,
00000000,
00060000,
00068000,
00070000,
00078000,
00080000,
00000000,
00000000,
00000000,
00000000,
00000000,
00000000,
00000000,
00000000,
00000000,
00000000,
00000000,
00000000,
00000000,
00000000,
00000000,
00000000,
00000000,
00000000,
00000000,
00000000,
00000000,
00000000,
00000000,
00000000,
00000000,
00000000,
00000000,
00010000,
00018000,
00020000,
00028000,
00030000,
00000000,
00000000,
00000000,
00018000,
00020000,
00028000,
00030000,
00038000,
00000000,
00000000,
00000000,
00020000,
00028000,
00030000,
00038000,
00040000,
00000000,
00000000,
00000000,
00028000,
00030000,
00038000,
00040000,
00048000,
00000000,
00000000,
00000000,
00030000,
00038000,
00040000,
00048000,
00050000,
00000000,
00000000,
00000000,
00000000,
00000000,
00000000,
00000000,
00000000,
00000000,
00000000,
00000000,
00000000,
00000000,
00000000,
00000000,
00000000,
00000000,
00000000,
00000000,
00000000,
00000000,
00000000,
00000000,
00000000,
00000000,
00000000,
00000000,
00018000,
00020000,
00028000,
00030000,
00038000,
00000000,
00000000,
00000000,
00020000,
00028000,
00030000,
00038000,
00040000,
00000000,
00000000,
00000000,
00028000,
00030000,
00038000,
00040000,
00048000,
00000000,
00000000,
00000000,
00030000,
00038000,
00040000,
00048000,
00050000,
00000000,
00000000,
00000000,
00038000,
00040000,
00048000,
00050000,
00058000,
00000000,
00000000,
00000000,
00000000,
00000000,
00000000,
00000000,
00000000,
00000000,
00000000,
00000000,
00000000,
00000000,
00000000,
00000000,
00000000,
00000000,
00000000,
00000000,
00000000,
00000000,
00000000,
00000000,
00000000,
00000000,
00000000,
00000000,
00020000,
00028000,
00030000,
00038000,
00040000,
00000000,
00000000,
00000000,
00028000,
00030000,
00038000,
00040000,
00048000,
00000000,
00000000,
00000000,
00030000,
00038000,
00040000,
00048000,
00050000,
00000000,
00000000,
00000000,
00038000,
00040000,
00048000,
00050000,
00058000,
00000000,
00000000,
00000000,
00040000,
00048000,
00050000,
00058000,
00060000,
00000000,
00000000,
00000000,
00000000,
00000000,
00000000,
00000000,
00000000,
00000000,
00000000,
00000000,
00000000,
00000000,
00000000,
00000000,
00000000,
00000000,
00000000,
00000000,
00000000,
00000000,
00000000,
00000000,
00000000,
00000000,
00000000,
00000000,
00028000,
00030000,
00038000,
00040000,
00048000,
00000000,
00000000,
00000000,
00030000,
00038000,
00040000,
00048000,
00050000,
00000000,
00000000,
00000000,
00038000,
00040000,
00048000,
00050000,
00058000,
00000000,
00000000,
00000000,
00040000,
00048000,
00050000,
00058000,
00060000,
00000000,
00000000,
00000000,
00048000,
00050000,
00058000,
00060000,
00068000,
00000000,
00000000,
00000000,
00000000,
00000000,
00000000,
00000000,
00000000,
00000000,
00000000,
00000000,
00000000,
00000000,
00000000,
00000000,
00000000,
00000000,
00000000,
00000000,
00000000,
00000000,
00000000,
00000000,
00000000,
00000000,
00000000,
00000000,
00030000,
00038000,
00040000,
00048000,
00050000,
00000000,
00000000,
00000000,
00038000,
00040000,
00048000,
00050000,
00058000,
00000000,
00000000,
00000000,
00040000,
00048000,
00050000,
00058000,
00060000,
00000000,
00000000,
00000000,
00048000,
00050000,
00058000,
00060000,
00068000,
00000000,
00000000,
00000000,
00050000,
00058000,
00060000,
00068000,
00070000,
00000000,
00000000,
00000000,
00000000,
00000000,
00000000,
00000000,
00000000,
00000000,
00000000,
00000000,
00000000,
00000000,
00000000,
00000000,
00000000,
00000000,
00000000,
00000000,
00000000,
00000000,
00000000,
00000000,
00000000,
00000000,
00000000,
00000000,
00038000,
00040000,
00048000,
00050000,
00058000,
00000000,
00000000,
00000000,
00040000,
00048000,
00050000,
00058000,
00060000,
00000000,
00000000,
00000000,
00048000,
00050000,
00058000,
00060000,
00068000,
00000000,
00000000,
00000000,
00050000,
00058000,
00060000,
00068000,
00070000,
00000000,
00000000,
00000000,
00058000,
00060000,
00068000,
00070000,
00078000,
00000000,
00000000,
00000000,
00000000,
00000000,
00000000,
00000000,
00000000,
00000000,
00000000,
00000000,
00000000,
00000000,
00000000,
00000000,
00000000,
00000000,
00000000,
00000000,
00000000,
00000000,
00000000,
00000000,
00000000,
00000000,
00000000,
00000000,
00040000,
00048000,
00050000,
00058000,
00060000,
00000000,
00000000,
00000000,
00048000,
00050000,
00058000,
00060000,
00068000,
00000000,
00000000,
00000000,
00050000,
00058000,
00060000,
00068000,
00070000,
00000000,
00000000,
00000000,
00058000,
00060000,
00068000,
00070000,
00078000,
00000000,
00000000,
00000000,
00060000,
00068000,
00070000,
00078000,
00080000,
00000000,
00000000,
00000000,
00000000,
00000000,
00000000,
00000000,
00000000,
00000000,
00000000,
00000000,
00000000,
00000000,
00000000,
00000000,
00000000,
00000000,
00000000,
00000000,
00000000,
00000000,
00000000,
00000000,
00000000,
00000000,
00000000,
00000000,
00048000,
00050000,
00058000,
00060000,
00068000,
00000000,
00000000,
00000000,
00050000,
00058000,
00060000,
00068000,
00070000,
00000000,
00000000,
00000000,
00058000,
00060000,
00068000,
00070000,
00078000,
00000000,
00000000,
00000000,
00060000,
00068000,
00070000,
00078000,
00080000,
00000000,
00000000,
00000000,
00068000,
00070000,
00078000,
00080000,
00088000,
00000000,
00000000,
00000000,
00000000,
00000000,
00000000,
00000000,
00000000,
00000000,
00000000,
00000000,
00000000,
00000000,
00000000,
00000000,
00000000,
00000000,
00000000,
00000000,
00000000,
00000000,
00000000,
00000000,
00000000,
00000000,
00000000,
00000000,
00018000,
00020000,
00028000,
00030000,
00038000,
00000000,
00000000,
00000000,
00020000,
00028000,
00030000,
00038000,
00040000,
00000000,
00000000,
00000000,
00028000,
00030000,
00038000,
00040000,
00048000,
00000000,
00000000,
00000000,
00030000,
00038000,
00040000,
00048000,
00050000,
00000000,
00000000,
00000000,
00038000,
00040000,
00048000,
00050000,
00058000,
00000000,
00000000,
00000000,
00000000,
00000000,
00000000,
00000000,
00000000,
00000000,
00000000,
00000000,
00000000,
00000000,
00000000,
00000000,
00000000,
00000000,
00000000,
00000000,
00000000,
00000000,
00000000,
00000000,
00000000,
00000000,
00000000,
00000000,
00020000,
00028000,
00030000,
00038000,
00040000,
00000000,
00000000,
00000000,
00028000,
00030000,
00038000,
00040000,
00048000,
00000000,
00000000,
00000000,
00030000,
00038000,
00040000,
00048000,
00050000,
00000000,
00000000,
00000000,
00038000,
00040000,
00048000,
00050000,
00058000,
00000000,
00000000,
00000000,
00040000,
00048000,
00050000,
00058000,
00060000,
00000000,
00000000,
00000000,
00000000,
00000000,
00000000,
00000000,
00000000,
00000000,
00000000,
00000000,
00000000,
00000000,
00000000,
00000000,
00000000,
00000000,
00000000,
00000000,
00000000,
00000000,
00000000,
00000000,
00000000,
00000000,
00000000,
00000000,
00028000,
00030000,
00038000,
00040000,
00048000,
00000000,
00000000,
00000000,
00030000,
00038000,
00040000,
00048000,
00050000,
00000000,
00000000,
00000000,
00038000,
00040000,
00048000,
00050000,
00058000,
00000000,
00000000,
00000000,
00040000,
00048000,
00050000,
00058000,
00060000,
00000000,
00000000,
00000000,
00048000,
00050000,
00058000,
00060000,
00068000,
00000000,
00000000,
00000000,
00000000,
00000000,
00000000,
00000000,
00000000,
00000000,
00000000,
00000000,
00000000,
00000000,
00000000,
00000000,
00000000,
00000000,
00000000,
00000000,
00000000,
00000000,
00000000,
00000000,
00000000,
00000000,
00000000,
00000000,
00030000,
00038000,
00040000,
00048000,
00050000,
00000000,
00000000,
00000000,
00038000,
00040000,
00048000,
00050000,
00058000,
00000000,
00000000,
00000000,
00040000,
00048000,
00050000,
00058000,
00060000,
00000000,
00000000,
00000000,
00048000,
00050000,
00058000,
00060000,
00068000,
00000000,
00000000,
00000000,
00050000,
00058000,
00060000,
00068000,
00070000,
00000000,
00000000,
00000000,
00000000,
00000000,
00000000,
00000000,
00000000,
00000000,
00000000,
00000000,
00000000,
00000000,
00000000,
00000000,
00000000,
00000000,
00000000,
00000000,
00000000,
00000000,
00000000,
00000000,
00000000,
00000000,
00000000,
00000000,
00038000,
00040000,
00048000,
00050000,
00058000,
00000000,
00000000,
00000000,
00040000,
00048000,
00050000,
00058000,
00060000,
00000000,
00000000,
00000000,
00048000,
00050000,
00058000,
00060000,
00068000,
00000000,
00000000,
00000000,
00050000,
00058000,
00060000,
00068000,
00070000,
00000000,
00000000,
00000000,
00058000,
00060000,
00068000,
00070000,
00078000,
00000000,
00000000,
00000000,
00000000,
00000000,
00000000,
00000000,
00000000,
00000000,
00000000,
00000000,
00000000,
00000000,
00000000,
00000000,
00000000,
00000000,
00000000,
00000000,
00000000,
00000000,
00000000,
00000000,
00000000,
00000000,
00000000,
00000000,
00040000,
00048000,
00050000,
00058000,
00060000,
00000000,
00000000,
00000000,
00048000,
00050000,
00058000,
00060000,
00068000,
00000000,
00000000,
00000000,
00050000,
00058000,
00060000,
00068000,
00070000,
00000000,
00000000,
00000000,
00058000,
00060000,
00068000,
00070000,
00078000,
00000000,
00000000,
00000000,
00060000,
00068000,
00070000,
00078000,
00080000,
00000000,
00000000,
00000000,
00000000,
00000000,
00000000,
00000000,
00000000,
00000000,
00000000,
00000000,
00000000,
00000000,
00000000,
00000000,
00000000,
00000000,
00000000,
00000000,
00000000,
00000000,
00000000,
00000000,
00000000,
00000000,
00000000,
00000000,
00048000,
00050000,
00058000,
00060000,
00068000,
00000000,
00000000,
00000000,
00050000,
00058000,
00060000,
00068000,
00070000,
00000000,
00000000,
00000000,
00058000,
00060000,
00068000,
00070000,
00078000,
00000000,
00000000,
00000000,
00060000,
00068000,
00070000,
00078000,
00080000,
00000000,
00000000,
00000000,
00068000,
00070000,
00078000,
00080000,
00088000,
00000000,
00000000,
00000000,
00000000,
00000000,
00000000,
00000000,
00000000,
00000000,
00000000,
00000000,
00000000,
00000000,
00000000,
00000000,
00000000,
00000000,
00000000,
00000000,
00000000,
00000000,
00000000,
00000000,
00000000,
00000000,
00000000,
00000000,
00050000,
00058000,
00060000,
00068000,
00070000,
00000000,
00000000,
00000000,
00058000,
00060000,
00068000,
00070000,
00078000,
00000000,
00000000,
00000000,
00060000,
00068000,
00070000,
00078000,
00080000,
00000000,
00000000,
00000000,
00068000,
00070000,
00078000,
00080000,
00088000,
00000000,
00000000,
00000000,
00070000,
00078000,
00080000,
00088000,
00090000,
00000000,
00000000,
00000000,
00000000,
00000000,
00000000,
00000000,
00000000,
00000000,
00000000,
00000000,
00000000,
00000000,
00000000,
00000000,
00000000,
00000000,
00000000,
00000000,
00000000,
00000000,
00000000,
00000000,
00000000,
00000000,
00000000,
00000000,
00020000,
00028000,
00030000,
00038000,
00040000,
00000000,
00000000,
00000000,
00028000,
00030000,
00038000,
00040000,
00048000,
00000000,
00000000,
00000000,
00030000,
00038000,
00040000,
00048000,
00050000,
00000000,
00000000,
00000000,
00038000,
00040000,
00048000,
00050000,
00058000,
00000000,
00000000,
00000000,
00040000,
00048000,
00050000,
00058000,
00060000,
00000000,
00000000,
00000000,
00000000,
00000000,
00000000,
00000000,
00000000,
00000000,
00000000,
00000000,
00000000,
00000000,
00000000,
00000000,
00000000,
00000000,
00000000,
00000000,
00000000,
00000000,
00000000,
00000000,
00000000,
00000000,
00000000,
00000000,
00028000,
00030000,
00038000,
00040000,
00048000,
00000000,
00000000,
00000000,
00030000,
00038000,
00040000,
00048000,
00050000,
00000000,
00000000,
00000000,
00038000,
00040000,
00048000,
00050000,
00058000,
00000000,
00000000,
00000000,
00040000,
00048000,
00050000,
00058000,
00060000,
00000000,
00000000,
00000000,
00048000,
00050000,
00058000,
00060000,
00068000,
00000000,
00000000,
00000000,
00000000,
00000000,
00000000,
00000000,
00000000,
00000000,
00000000,
00000000,
00000000,
00000000,
00000000,
00000000,
00000000,
00000000,
00000000,
00000000,
00000000,
00000000,
00000000,
00000000,
00000000,
00000000,
00000000,
00000000,
00030000,
00038000,
00040000,
00048000,
00050000,
00000000,
00000000,
00000000,
00038000,
00040000,
00048000,
00050000,
00058000,
00000000,
00000000,
00000000,
00040000,
00048000,
00050000,
00058000,
00060000,
00000000,
00000000,
00000000,
00048000,
00050000,
00058000,
00060000,
00068000,
00000000,
00000000,
00000000,
00050000,
00058000,
00060000,
00068000,
00070000,
00000000,
00000000,
00000000,
00000000,
00000000,
00000000,
00000000,
00000000,
00000000,
00000000,
00000000,
00000000,
00000000,
00000000,
00000000,
00000000,
00000000,
00000000,
00000000,
00000000,
00000000,
00000000,
00000000,
00000000,
00000000,
00000000,
00000000,
00038000,
00040000,
00048000,
00050000,
00058000,
00000000,
00000000,
00000000,
00040000,
00048000,
00050000,
00058000,
00060000,
00000000,
00000000,
00000000,
00048000,
00050000,
00058000,
00060000,
00068000,
00000000,
00000000,
00000000,
00050000,
00058000,
00060000,
00068000,
00070000,
00000000,
00000000,
00000000,
00058000,
00060000,
00068000,
00070000,
00078000,
00000000,
00000000,
00000000,
00000000,
00000000,
00000000,
00000000,
00000000,
00000000,
00000000,
00000000,
00000000,
00000000,
00000000,
00000000,
00000000,
00000000,
00000000,
00000000,
00000000,
00000000,
00000000,
00000000,
00000000,
00000000,
00000000,
00000000,
00040000,
00048000,
00050000,
00058000,
00060000,
00000000,
00000000,
00000000,
00048000,
00050000,
00058000,
00060000,
00068000,
00000000,
00000000,
00000000,
00050000,
00058000,
00060000,
00068000,
00070000,
00000000,
00000000,
00000000,
00058000,
00060000,
00068000,
00070000,
00078000,
00000000,
00000000,
00000000,
00060000,
00068000,
00070000,
00078000,
00080000,
00000000,
00000000,
00000000,
00000000,
00000000,
00000000,
00000000,
00000000,
00000000,
00000000,
00000000,
00000000,
00000000,
00000000,
00000000,
00000000,
00000000,
00000000,
00000000,
00000000,
00000000,
00000000,
00000000,
00000000,
00000000,
00000000,
00000000,
00048000,
00050000,
00058000,
00060000,
00068000,
00000000,
00000000,
00000000,
00050000,
00058000,
00060000,
00068000,
00070000,
00000000,
00000000,
00000000,
00058000,
00060000,
00068000,
00070000,
00078000,
00000000,
00000000,
00000000,
00060000,
00068000,
00070000,
00078000,
00080000,
00000000,
00000000,
00000000,
00068000,
00070000,
00078000,
00080000,
00088000,
00000000,
00000000,
00000000,
00000000,
00000000,
00000000,
00000000,
00000000,
00000000,
00000000,
00000000,
00000000,
00000000,
00000000,
00000000,
00000000,
00000000,
00000000,
00000000,
00000000,
00000000,
00000000,
00000000,
00000000,
00000000,
00000000,
00000000,
00050000,
00058000,
00060000,
00068000,
00070000,
00000000,
00000000,
00000000,
00058000,
00060000,
00068000,
00070000,
00078000,
00000000,
00000000,
00000000,
00060000,
00068000,
00070000,
00078000,
00080000,
00000000,
00000000,
00000000,
00068000,
00070000,
00078000,
00080000,
00088000,
00000000,
00000000,
00000000,
00070000,
00078000,
00080000,
00088000,
00090000,
00000000,
00000000,
00000000,
00000000,
00000000,
00000000,
00000000,
00000000,
00000000,
00000000,
00000000,
00000000,
00000000,
00000000,
00000000,
00000000,
00000000,
00000000,
00000000,
00000000,
00000000,
00000000,
00000000,
00000000,
00000000,
00000000,
00000000,
00058000,
00060000,
00068000,
00070000,
00078000,
00000000,
00000000,
00000000,
00060000,
00068000,
00070000,
00078000,
00080000,
00000000,
00000000,
00000000,
00068000,
00070000,
00078000,
00080000,
00088000,
00000000,
00000000,
00000000,
00070000,
00078000,
00080000,
00088000,
00090000,
00000000,
00000000,
00000000,
00078000,
00080000,
00088000,
00090000,
00098000,
00000000,
00000000,
00000000,
00000000,
00000000,
00000000,
00000000,
00000000,
00000000,
00000000,
00000000,
00000000,
00000000,
00000000,
00000000,
00000000,
00000000,
00000000,
00000000,
00000000,
00000000,
00000000,
00000000,
00000000,
00000000,
00000000,
00000000,
00028000,
00030000,
00038000,
00040000,
00048000,
00000000,
00000000,
00000000,
00030000,
00038000,
00040000,
00048000,
00050000,
00000000,
00000000,
00000000,
00038000,
00040000,
00048000,
00050000,
00058000,
00000000,
00000000,
00000000,
00040000,
00048000,
00050000,
00058000,
00060000,
00000000,
00000000,
00000000,
00048000,
00050000,
00058000,
00060000,
00068000,
00000000,
00000000,
00000000,
00000000,
00000000,
00000000,
00000000,
00000000,
00000000,
00000000,
00000000,
00000000,
00000000,
00000000,
00000000,
00000000,
00000000,
00000000,
00000000,
00000000,
00000000,
00000000,
00000000,
00000000,
00000000,
00000000,
00000000,
00030000,
00038000,
00040000,
00048000,
00050000,
00000000,
00000000,
00000000,
00038000,
00040000,
00048000,
00050000,
00058000,
00000000,
00000000,
00000000,
00040000,
00048000,
00050000,
00058000,
00060000,
00000000,
00000000,
00000000,
00048000,
00050000,
00058000,
00060000,
00068000,
00000000,
00000000,
00000000,
00050000,
00058000,
00060000,
00068000,
00070000,
00000000,
00000000,
00000000,
00000000,
00000000,
00000000,
00000000,
00000000,
00000000,
00000000,
00000000,
00000000,
00000000,
00000000,
00000000,
00000000,
00000000,
00000000,
00000000,
00000000,
00000000,
00000000,
00000000,
00000000,
00000000,
00000000,
00000000,
00038000,
00040000,
00048000,
00050000,
00058000,
00000000,
00000000,
00000000,
00040000,
00048000,
00050000,
00058000,
00060000,
00000000,
00000000,
00000000,
00048000,
00050000,
00058000,
00060000,
00068000,
00000000,
00000000,
00000000,
00050000,
00058000,
00060000,
00068000,
00070000,
00000000,
00000000,
00000000,
00058000,
00060000,
00068000,
00070000,
00078000,
00000000,
00000000,
00000000,
00000000,
00000000,
00000000,
00000000,
00000000,
00000000,
00000000,
00000000,
00000000,
00000000,
00000000,
00000000,
00000000,
00000000,
00000000,
00000000,
00000000,
00000000,
00000000,
00000000,
00000000,
00000000,
00000000,
00000000,
00040000,
00048000,
00050000,
00058000,
00060000,
00000000,
00000000,
00000000,
00048000,
00050000,
00058000,
00060000,
00068000,
00000000,
00000000,
00000000,
00050000,
00058000,
00060000,
00068000,
00070000,
00000000,
00000000,
00000000,
00058000,
00060000,
00068000,
00070000,
00078000,
00000000,
00000000,
00000000,
00060000,
00068000,
00070000,
00078000,
00080000,
00000000,
00000000,
00000000,
00000000,
00000000,
00000000,
00000000,
00000000,
00000000,
00000000,
00000000,
00000000,
00000000,
00000000,
00000000,
00000000,
00000000,
00000000,
00000000,
00000000,
00000000,
00000000,
00000000,
00000000,
00000000,
00000000,
00000000,
00048000,
00050000,
00058000,
00060000,
00068000,
00000000,
00000000,
00000000,
00050000,
00058000,
00060000,
00068000,
00070000,
00000000,
00000000,
00000000,
00058000,
00060000,
00068000,
00070000,
00078000,
00000000,
00000000,
00000000,
00060000,
00068000,
00070000,
00078000,
00080000,
00000000,
00000000,
00000000,
00068000,
00070000,
00078000,
00080000,
00088000,
00000000,
00000000,
00000000,
00000000,
00000000,
00000000,
00000000,
00000000,
00000000,
00000000,
00000000,
00000000,
00000000,
00000000,
00000000,
00000000,
00000000,
00000000,
00000000,
00000000,
00000000,
00000000,
00000000,
00000000,
00000000,
00000000,
00000000,
00050000,
00058000,
00060000,
00068000,
00070000,
00000000,
00000000,
00000000,
00058000,
00060000,
00068000,
00070000,
00078000,
00000000,
00000000,
00000000,
00060000,
00068000,
00070000,
00078000,
00080000,
00000000,
00000000,
00000000,
00068000,
00070000,
00078000,
00080000,
00088000,
00000000,
00000000,
00000000,
00070000,
00078000,
00080000,
00088000,
00090000,
00000000,
00000000,
00000000,
00000000,
00000000,
00000000,
00000000,
00000000,
00000000,
00000000,
00000000,
00000000,
00000000,
00000000,
00000000,
00000000,
00000000,
00000000,
00000000,
00000000,
00000000,
00000000,
00000000,
00000000,
00000000,
00000000,
00000000,
00058000,
00060000,
00068000,
00070000,
00078000,
00000000,
00000000,
00000000,
00060000,
00068000,
00070000,
00078000,
00080000,
00000000,
00000000,
00000000,
00068000,
00070000,
00078000,
00080000,
00088000,
00000000,
00000000,
00000000,
00070000,
00078000,
00080000,
00088000,
00090000,
00000000,
00000000,
00000000,
00078000,
00080000,
00088000,
00090000,
00098000,
00000000,
00000000,
00000000,
00000000,
00000000,
00000000,
00000000,
00000000,
00000000,
00000000,
00000000,
00000000,
00000000,
00000000,
00000000,
00000000,
00000000,
00000000,
00000000,
00000000,
00000000,
00000000,
00000000,
00000000,
00000000,
00000000,
00000000,
00060000,
00068000,
00070000,
00078000,
00080000,
00000000,
00000000,
00000000,
00068000,
00070000,
00078000,
00080000,
00088000,
00000000,
00000000,
00000000,
00070000,
00078000,
00080000,
00088000,
00090000,
00000000,
00000000,
00000000,
00078000,
00080000,
00088000,
00090000,
00098000,
00000000,
00000000,
00000000,
00080000,
00088000,
00090000,
00098000,
000a0000,
00000000,
00000000,
00000000,
00000000,
00000000,
00000000,
00000000,
00000000,
00000000,
00000000,
00000000,
00000000,
00000000,
00000000,
00000000,
00000000,
00000000,
00000000,
00000000,
00000000,
00000000,
00000000,
00000000,
00000000,
00000000,
00000000,
00000000,
00030000,
00038000,
00040000,
00048000,
00050000,
00000000,
00000000,
00000000,
00038000,
00040000,
00048000,
00050000,
00058000,
00000000,
00000000,
00000000,
00040000,
00048000,
00050000,
00058000,
00060000,
00000000,
00000000,
00000000,
00048000,
00050000,
00058000,
00060000,
00068000,
00000000,
00000000,
00000000,
00050000,
00058000,
00060000,
00068000,
00070000,
00000000,
00000000,
00000000,
00000000,
00000000,
00000000,
00000000,
00000000,
00000000,
00000000,
00000000,
00000000,
00000000,
00000000,
00000000,
00000000,
00000000,
00000000,
00000000,
00000000,
00000000,
00000000,
00000000,
00000000,
00000000,
00000000,
00000000,
00038000,
00040000,
00048000,
00050000,
00058000,
00000000,
00000000,
00000000,
00040000,
00048000,
00050000,
00058000,
00060000,
00000000,
00000000,
00000000,
00048000,
00050000,
00058000,
00060000,
00068000,
00000000,
00000000,
00000000,
00050000,
00058000,
00060000,
00068000,
00070000,
00000000,
00000000,
00000000,
00058000,
00060000,
00068000,
00070000,
00078000,
00000000,
00000000,
00000000,
00000000,
00000000,
00000000,
00000000,
00000000,
00000000,
00000000,
00000000,
00000000,
00000000,
00000000,
00000000,
00000000,
00000000,
00000000,
00000000,
00000000,
00000000,
00000000,
00000000,
00000000,
00000000,
00000000,
00000000,
00040000,
00048000,
00050000,
00058000,
00060000,
00000000,
00000000,
00000000,
00048000,
00050000,
00058000,
00060000,
00068000,
00000000,
00000000,
00000000,
00050000,
00058000,
00060000,
00068000,
00070000,
00000000,
00000000,
00000000,
00058000,
00060000,
00068000,
00070000,
00078000,
00000000,
00000000,
00000000,
00060000,
00068000,
00070000,
00078000,
00080000,
00000000,
00000000,
00000000,
00000000,
00000000,
00000000,
00000000,
00000000,
00000000,
00000000,
00000000,
00000000,
00000000,
00000000,
00000000,
00000000,
00000000,
00000000,
00000000,
00000000,
00000000,
00000000,
00000000,
00000000,
00000000,
00000000,
00000000,
00048000,
00050000,
00058000,
00060000,
00068000,
00000000,
00000000,
00000000,
00050000,
00058000,
00060000,
00068000,
00070000,
00000000,
00000000,
00000000,
00058000,
00060000,
00068000,
00070000,
00078000,
00000000,
00000000,
00000000,
00060000,
00068000,
00070000,
00078000,
00080000,
00000000,
00000000,
00000000,
00068000,
00070000,
00078000,
00080000,
00088000,
00000000,
00000000,
00000000,
00000000,
00000000,
00000000,
00000000,
00000000,
00000000,
00000000,
00000000,
00000000,
00000000,
00000000,
00000000,
00000000,
00000000,
00000000,
00000000,
00000000,
00000000,
00000000,
00000000,
00000000,
00000000,
00000000,
00000000,
00050000,
00058000,
00060000,
00068000,
00070000,
00000000,
00000000,
00000000,
00058000,
00060000,
00068000,
00070000,
00078000,
00000000,
00000000,
00000000,
00060000,
00068000,
00070000,
00078000,
00080000,
00000000,
00000000,
00000000,
00068000,
00070000,
00078000,
00080000,
00088000,
00000000,
00000000,
00000000,
00070000,
00078000,
00080000,
00088000,
00090000,
00000000,
00000000,
00000000,
00000000,
00000000,
00000000,
00000000,
00000000,
00000000,
00000000,
00000000,
00000000,
00000000,
00000000,
00000000,
00000000,
00000000,
00000000,
00000000,
00000000,
00000000,
00000000,
00000000,
00000000,
00000000,
00000000,
00000000,
00058000,
00060000,
00068000,
00070000,
00078000,
00000000,
00000000,
00000000,
00060000,
00068000,
00070000,
00078000,
00080000,
00000000,
00000000,
00000000,
00068000,
00070000,
00078000,
00080000,
00088000,
00000000,
00000000,
00000000,
00070000,
00078000,
00080000,
00088000,
00090000,
00000000,
00000000,
00000000,
00078000,
00080000,
00088000,
00090000,
00098000,
00000000,
00000000,
00000000,
00000000,
00000000,
00000000,
00000000,
00000000,
00000000,
00000000,
00000000,
00000000,
00000000,
00000000,
00000000,
00000000,
00000000,
00000000,
00000000,
00000000,
00000000,
00000000,
00000000,
00000000,
00000000,
00000000,
00000000,
00060000,
00068000,
00070000,
00078000,
00080000,
00000000,
00000000,
00000000,
00068000,
00070000,
00078000,
00080000,
00088000,
00000000,
00000000,
00000000,
00070000,
00078000,
00080000,
00088000,
00090000,
00000000,
00000000,
00000000,
00078000,
00080000,
00088000,
00090000,
00098000,
00000000,
00000000,
00000000,
00080000,
00088000,
00090000,
00098000,
000a0000,
00000000,
00000000,
00000000,
00000000,
00000000,
00000000,
00000000,
00000000,
00000000,
00000000,
00000000,
00000000,
00000000,
00000000,
00000000,
00000000,
00000000,
00000000,
00000000,
00000000,
00000000,
00000000,
00000000,
00000000,
00000000,
00000000,
00000000,
00068000,
00070000,
00078000,
00080000,
00088000,
00000000,
00000000,
00000000,
00070000,
00078000,
00080000,
00088000,
00090000,
00000000,
00000000,
00000000,
00078000,
00080000,
00088000,
00090000,
00098000,
00000000,
00000000,
00000000,
00080000,
00088000,
00090000,
00098000,
000a0000,
00000000,
00000000,
00000000,
00088000,
00090000,
00098000,
000a0000,
000a8000,
00000000,
00000000,
00000000,
00000000,
00000000,
00000000,
00000000,
00000000,
00000000,
00000000,
00000000,
00000000,
00000000,
00000000,
00000000,
00000000,
00000000,
00000000,
00000000,
00000000,
00000000,
00000000,
00000000,
00000000,
00000000,
00000000,
00000000,
00038000,
00040000,
00048000,
00050000,
00058000,
00000000,
00000000,
00000000,
00040000,
00048000,
00050000,
00058000,
00060000,
00000000,
00000000,
00000000,
00048000,
00050000,
00058000,
00060000,
00068000,
00000000,
00000000,
00000000,
00050000,
00058000,
00060000,
00068000,
00070000,
00000000,
00000000,
00000000,
00058000,
00060000,
00068000,
00070000,
00078000,
00000000,
00000000,
00000000,
00000000,
00000000,
00000000,
00000000,
00000000,
00000000,
00000000,
00000000,
00000000,
00000000,
00000000,
00000000,
00000000,
00000000,
00000000,
00000000,
00000000,
00000000,
00000000,
00000000,
00000000,
00000000,
00000000,
00000000,
00040000,
00048000,
00050000,
00058000,
00060000,
00000000,
00000000,
00000000,
00048000,
00050000,
00058000,
00060000,
00068000,
00000000,
00000000,
00000000,
00050000,
00058000,
00060000,
00068000,
00070000,
00000000,
00000000,
00000000,
00058000,
00060000,
00068000,
00070000,
00078000,
00000000,
00000000,
00000000,
00060000,
00068000,
00070000,
00078000,
00080000,
00000000,
00000000,
00000000,
00000000,
00000000,
00000000,
00000000,
00000000,
00000000,
00000000,
00000000,
00000000,
00000000,
00000000,
00000000,
00000000,
00000000,
00000000,
00000000,
00000000,
00000000,
00000000,
00000000,
00000000,
00000000,
00000000,
00000000,
00048000,
00050000,
00058000,
00060000,
00068000,
00000000,
00000000,
00000000,
00050000,
00058000,
00060000,
00068000,
00070000,
00000000,
00000000,
00000000,
00058000,
00060000,
00068000,
00070000,
00078000,
00000000,
00000000,
00000000,
00060000,
00068000,
00070000,
00078000,
00080000,
00000000,
00000000,
00000000,
00068000,
00070000,
00078000,
00080000,
00088000,
00000000,
00000000,
00000000,
00000000,
00000000,
00000000,
00000000,
00000000,
00000000,
00000000,
00000000,
00000000,
00000000,
00000000,
00000000,
00000000,
00000000,
00000000,
00000000,
00000000,
00000000,
00000000,
00000000,
00000000,
00000000,
00000000,
00000000,
00050000,
00058000,
00060000,
00068000,
00070000,
00000000,
00000000,
00000000,
00058000,
00060000,
00068000,
00070000,
00078000,
00000000,
00000000,
00000000,
00060000,
00068000,
00070000,
00078000,
00080000,
00000000,
00000000,
00000000,
00068000,
00070000,
00078000,
00080000,
00088000,
00000000,
00000000,
00000000,
00070000,
00078000,
00080000,
00088000,
00090000,
00000000,
00000000,
00000000,
00000000,
00000000,
00000000,
00000000,
00000000,
00000000,
00000000,
00000000,
00000000,
00000000,
00000000,
00000000,
00000000,
00000000,
00000000,
00000000,
00000000,
00000000,
00000000,
00000000,
00000000,
00000000,
00000000,
00000000,
00058000,
00060000,
00068000,
00070000,
00078000,
00000000,
00000000,
00000000,
00060000,
00068000,
00070000,
00078000,
00080000,
00000000,
00000000,
00000000,
00068000,
00070000,
00078000,
00080000,
00088000,
00000000,
00000000,
00000000,
00070000,
00078000,
00080000,
00088000,
00090000,
00000000,
00000000,
00000000,
00078000,
00080000,
00088000,
00090000,
00098000,
00000000,
00000000,
00000000,
00000000,
00000000,
00000000,
00000000,
00000000,
00000000,
00000000,
00000000,
00000000,
00000000,
00000000,
00000000,
00000000,
00000000,
00000000,
00000000,
00000000,
00000000,
00000000,
00000000,
00000000,
00000000,
00000000,
00000000,
00060000,
00068000,
00070000,
00078000,
00080000,
00000000,
00000000,
00000000,
00068000,
00070000,
00078000,
00080000,
00088000,
00000000,
00000000,
00000000,
00070000,
00078000,
00080000,
00088000,
00090000,
00000000,
00000000,
00000000,
00078000,
00080000,
00088000,
00090000,
00098000,
00000000,
00000000,
00000000,
00080000,
00088000,
00090000,
00098000,
000a0000,
00000000,
00000000,
00000000,
00000000,
00000000,
00000000,
00000000,
00000000,
00000000,
00000000,
00000000,
00000000,
00000000,
00000000,
00000000,
00000000,
00000000,
00000000,
00000000,
00000000,
00000000,
00000000,
00000000,
00000000,
00000000,
00000000,
00000000,
00068000,
00070000,
00078000,
00080000,
00088000,
00000000,
00000000,
00000000,
00070000,
00078000,
00080000,
00088000,
00090000,
00000000,
00000000,
00000000,
00078000,
00080000,
00088000,
00090000,
00098000,
00000000,
00000000,
00000000,
00080000,
00088000,
00090000,
00098000,
000a0000,
00000000,
00000000,
00000000,
00088000,
00090000,
00098000,
000a0000,
000a8000,
00000000,
00000000,
00000000,
00000000,
00000000,
00000000,
00000000,
00000000,
00000000,
00000000,
00000000,
00000000,
00000000,
00000000,
00000000,
00000000,
00000000,
00000000,
00000000,
00000000,
00000000,
00000000,
00000000,
00000000,
00000000,
00000000,
00000000,
00070000,
00078000,
00080000,
00088000,
00090000,
00000000,
00000000,
00000000,
00078000,
00080000,
00088000,
00090000,
00098000,
00000000,
00000000,
00000000,
00080000,
00088000,
00090000,
00098000,
000a0000,
00000000,
00000000,
00000000,
00088000,
00090000,
00098000,
000a0000,
000a8000,
00000000,
00000000,
00000000,
00090000,
00098000,
000a0000,
000a8000,
000b0000,
00000000,
00000000,
00000000,
00000000,
00000000,
00000000,
00000000,
00000000,
00000000,
00000000,
00000000,
00000000,
00000000,
00000000,
00000000,
00000000,
00000000,
00000000,
00000000,
00000000,
00000000,
00000000,
00000000,
00000000,
00000000,
00000000,
00000000,
00040000,
00048000,
00050000,
00058000,
00060000,
00000000,
00000000,
00000000,
00048000,
00050000,
00058000,
00060000,
00068000,
00000000,
00000000,
00000000,
00050000,
00058000,
00060000,
00068000,
00070000,
00000000,
00000000,
00000000,
00058000,
00060000,
00068000,
00070000,
00078000,
00000000,
00000000,
00000000,
00060000,
00068000,
00070000,
00078000,
00080000,
00000000,
00000000,
00000000,
00000000,
00000000,
00000000,
00000000,
00000000,
00000000,
00000000,
00000000,
00000000,
00000000,
00000000,
00000000,
00000000,
00000000,
00000000,
00000000,
00000000,
00000000,
00000000,
00000000,
00000000,
00000000,
00000000,
00000000,
00048000,
00050000,
00058000,
00060000,
00068000,
00000000,
00000000,
00000000,
00050000,
00058000,
00060000,
00068000,
00070000,
00000000,
00000000,
00000000,
00058000,
00060000,
00068000,
00070000,
00078000,
00000000,
00000000,
00000000,
00060000,
00068000,
00070000,
00078000,
00080000,
00000000,
00000000,
00000000,
00068000,
00070000,
00078000,
00080000,
00088000,
00000000,
00000000,
00000000,
00000000,
00000000,
00000000,
00000000,
00000000,
00000000,
00000000,
00000000,
00000000,
00000000,
00000000,
00000000,
00000000,
00000000,
00000000,
00000000,
00000000,
00000000,
00000000,
00000000,
00000000,
00000000,
00000000,
00000000,
00050000,
00058000,
00060000,
00068000,
00070000,
00000000,
00000000,
00000000,
00058000,
00060000,
00068000,
00070000,
00078000,
00000000,
00000000,
00000000,
00060000,
00068000,
00070000,
00078000,
00080000,
00000000,
00000000,
00000000,
00068000,
00070000,
00078000,
00080000,
00088000,
00000000,
00000000,
00000000,
00070000,
00078000,
00080000,
00088000,
00090000,
00000000,
00000000,
00000000,
00000000,
00000000,
00000000,
00000000,
00000000,
00000000,
00000000,
00000000,
00000000,
00000000,
00000000,
00000000,
00000000,
00000000,
00000000,
00000000,
00000000,
00000000,
00000000,
00000000,
00000000,
00000000,
00000000,
00000000,
00058000,
00060000,
00068000,
00070000,
00078000,
00000000,
00000000,
00000000,
00060000,
00068000,
00070000,
00078000,
00080000,
00000000,
00000000,
00000000,
00068000,
00070000,
00078000,
00080000,
00088000,
00000000,
00000000,
00000000,
00070000,
00078000,
00080000,
00088000,
00090000,
00000000,
00000000,
00000000,
00078000,
00080000,
00088000,
00090000,
00098000,
00000000,
00000000,
00000000,
00000000,
00000000,
00000000,
00000000,
00000000,
00000000,
00000000,
00000000,
00000000,
00000000,
00000000,
00000000,
00000000,
00000000,
00000000,
00000000,
00000000,
00000000,
00000000,
00000000,
00000000,
00000000,
00000000,
00000000,
00060000,
00068000,
00070000,
00078000,
00080000,
00000000,
00000000,
00000000,
00068000,
00070000,
00078000,
00080000,
00088000,
00000000,
00000000,
00000000,
00070000,
00078000,
00080000,
00088000,
00090000,
00000000,
00000000,
00000000,
00078000,
00080000,
00088000,
00090000,
00098000,
00000000,
00000000,
00000000,
00080000,
00088000,
00090000,
00098000,
000a0000,
00000000,
00000000,
00000000,
00000000,
00000000,
00000000,
00000000,
00000000,
00000000,
00000000,
00000000,
00000000,
00000000,
00000000,
00000000,
00000000,
00000000,
00000000,
00000000,
00000000,
00000000,
00000000,
00000000,
00000000,
00000000,
00000000,
00000000,
00068000,
00070000,
00078000,
00080000,
00088000,
00000000,
00000000,
00000000,
00070000,
00078000,
00080000,
00088000,
00090000,
00000000,
00000000,
00000000,
00078000,
00080000,
00088000,
00090000,
00098000,
00000000,
00000000,
00000000,
00080000,
00088000,
00090000,
00098000,
000a0000,
00000000,
00000000,
00000000,
00088000,
00090000,
00098000,
000a0000,
000a8000,
00000000,
00000000,
00000000,
00000000,
00000000,
00000000,
00000000,
00000000,
00000000,
00000000,
00000000,
00000000,
00000000,
00000000,
00000000,
00000000,
00000000,
00000000,
00000000,
00000000,
00000000,
00000000,
00000000,
00000000,
00000000,
00000000,
00000000,
00070000,
00078000,
00080000,
00088000,
00090000,
00000000,
00000000,
00000000,
00078000,
00080000,
00088000,
00090000,
00098000,
00000000,
00000000,
00000000,
00080000,
00088000,
00090000,
00098000,
000a0000,
00000000,
00000000,
00000000,
00088000,
00090000,
00098000,
000a0000,
000a8000,
00000000,
00000000,
00000000,
00090000,
00098000,
000a0000,
000a8000,
000b0000,
00000000,
00000000,
00000000,
00000000,
00000000,
00000000,
00000000,
00000000,
00000000,
00000000,
00000000,
00000000,
00000000,
00000000,
00000000,
00000000,
00000000,
00000000,
00000000,
00000000,
00000000,
00000000,
00000000,
00000000,
00000000,
00000000,
00000000,
00078000,
00080000,
00088000,
00090000,
00098000,
00000000,
00000000,
00000000,
00080000,
00088000,
00090000,
00098000,
000a0000,
00000000,
00000000,
00000000,
00088000,
00090000,
00098000,
000a0000,
000a8000,
00000000,
00000000,
00000000,
00090000,
00098000,
000a0000,
000a8000,
000b0000,
00000000,
00000000,
00000000,
00098000,
000a0000,
000a8000,
000b0000,
000b8000,
00000000,
00000000,
00000000,
00000000,
00000000,
00000000,
00000000,
00000000,
00000000,
00000000,
00000000,
00000000,
00000000,
00000000,
00000000,
00000000,
00000000,
00000000,
00000000,
00000000,
00000000,
00000000,
00000000,
00000000,
00000000,
00000000,
00000000,
00048000,
00050000,
00058000,
00060000,
00068000,
00000000,
00000000,
00000000,
00050000,
00058000,
00060000,
00068000,
00070000,
00000000,
00000000,
00000000,
00058000,
00060000,
00068000,
00070000,
00078000,
00000000,
00000000,
00000000,
00060000,
00068000,
00070000,
00078000,
00080000,
00000000,
00000000,
00000000,
00068000,
00070000,
00078000,
00080000,
00088000,
00000000,
00000000,
00000000,
00000000,
00000000,
00000000,
00000000,
00000000,
00000000,
00000000,
00000000,
00000000,
00000000,
00000000,
00000000,
00000000,
00000000,
00000000,
00000000,
00000000,
00000000,
00000000,
00000000,
00000000,
00000000,
00000000,
00000000,
00050000,
00058000,
00060000,
00068000,
00070000,
00000000,
00000000,
00000000,
00058000,
00060000,
00068000,
00070000,
00078000,
00000000,
00000000,
00000000,
00060000,
00068000,
00070000,
00078000,
00080000,
00000000,
00000000,
00000000,
00068000,
00070000,
00078000,
00080000,
00088000,
00000000,
00000000,
00000000,
00070000,
00078000,
00080000,
00088000,
00090000,
00000000,
00000000,
00000000,
00000000,
00000000,
00000000,
00000000,
00000000,
00000000,
00000000,
00000000,
00000000,
00000000,
00000000,
00000000,
00000000,
00000000,
00000000,
00000000,
00000000,
00000000,
00000000,
00000000,
00000000,
00000000,
00000000,
00000000,
00058000,
00060000,
00068000,
00070000,
00078000,
00000000,
00000000,
00000000,
00060000,
00068000,
00070000,
00078000,
00080000,
00000000,
00000000,
00000000,
00068000,
00070000,
00078000,
00080000,
00088000,
00000000,
00000000,
00000000,
00070000,
00078000,
00080000,
00088000,
00090000,
00000000,
00000000,
00000000,
00078000,
00080000,
00088000,
00090000,
00098000,
00000000,
00000000,
00000000,
00000000,
00000000,
00000000,
00000000,
00000000,
00000000,
00000000,
00000000,
00000000,
00000000,
00000000,
00000000,
00000000,
00000000,
00000000,
00000000,
00000000,
00000000,
00000000,
00000000,
00000000,
00000000,
00000000,
00000000,
00060000,
00068000,
00070000,
00078000,
00080000,
00000000,
00000000,
00000000,
00068000,
00070000,
00078000,
00080000,
00088000,
00000000,
00000000,
00000000,
00070000,
00078000,
00080000,
00088000,
00090000,
00000000,
00000000,
00000000,
00078000,
00080000,
00088000,
00090000,
00098000,
00000000,
00000000,
00000000,
00080000,
00088000,
00090000,
00098000,
000a0000,
00000000,
00000000,
00000000,
00000000,
00000000,
00000000,
00000000,
00000000,
00000000,
00000000,
00000000,
00000000,
00000000,
00000000,
00000000,
00000000,
00000000,
00000000,
00000000,
00000000,
00000000,
00000000,
00000000,
00000000,
00000000,
00000000,
00000000,
00068000,
00070000,
00078000,
00080000,
00088000,
00000000,
00000000,
00000000,
00070000,
00078000,
00080000,
00088000,
00090000,
00000000,
00000000,
00000000,
00078000,
00080000,
00088000,
00090000,
00098000,
00000000,
00000000,
00000000,
00080000,
00088000,
00090000,
00098000,
000a0000,
00000000,
00000000,
00000000,
00088000,
00090000,
00098000,
000a0000,
000a8000,
00000000,
00000000,
00000000,
00000000,
00000000,
00000000,
00000000,
00000000,
00000000,
00000000,
00000000,
00000000,
00000000,
00000000,
00000000,
00000000,
00000000,
00000000,
00000000,
00000000,
00000000,
00000000,
00000000,
00000000,
00000000,
00000000,
00000000,
00070000,
00078000,
00080000,
00088000,
00090000,
00000000,
00000000,
00000000,
00078000,
00080000,
00088000,
00090000,
00098000,
00000000,
00000000,
00000000,
00080000,
00088000,
00090000,
00098000,
000a0000,
00000000,
00000000,
00000000,
00088000,
00090000,
00098000,
000a0000,
000a8000,
00000000,
00000000,
00000000,
00090000,
00098000,
000a0000,
000a8000,
000b0000,
00000000,
00000000,
00000000,
00000000,
00000000,
00000000,
00000000,
00000000,
00000000,
00000000,
00000000,
00000000,
00000000,
00000000,
00000000,
00000000,
00000000,
00000000,
00000000,
00000000,
00000000,
00000000,
00000000,
00000000,
00000000,
00000000,
00000000,
00078000,
00080000,
00088000,
00090000,
00098000,
00000000,
00000000,
00000000,
00080000,
00088000,
00090000,
00098000,
000a0000,
00000000,
00000000,
00000000,
00088000,
00090000,
00098000,
000a0000,
000a8000,
00000000,
00000000,
00000000,
00090000,
00098000,
000a0000,
000a8000,
000b0000,
00000000,
00000000,
00000000,
00098000,
000a0000,
000a8000,
000b0000,
000b8000,
00000000,
00000000,
00000000,
00000000,
00000000,
00000000,
00000000,
00000000,
00000000,
00000000,
00000000,
00000000,
00000000,
00000000,
00000000,
00000000,
00000000,
00000000,
00000000,
00000000,
00000000,
00000000,
00000000,
00000000,
00000000,
00000000,
00000000,
00080000,
00088000,
00090000,
00098000,
000a0000,
00000000,
00000000,
00000000,
00088000,
00090000,
00098000,
000a0000,
000a8000,
00000000,
00000000,
00000000,
00090000,
00098000,
000a0000,
000a8000,
000b0000,
00000000,
00000000,
00000000,
00098000,
000a0000,
000a8000,
000b0000,
000b8000,
00000000,
00000000,
00000000,
000a0000,
000a8000,
000b0000,
000b8000,
000c0000,
00000000,
00000000,
00000000,
00000000,
00000000,
00000000,
00000000,
00000000,
00000000,
00000000,
00000000,
00000000,
00000000,
00000000,
00000000,
00000000,
00000000,
00000000,
00000000,
00000000,
00000000,
00000000,
00000000,
00000000,
00000000,
00000000,
00000000,
00050000,
00058000,
00060000,
00068000,
00070000,
00000000,
00000000,
00000000,
00058000,
00060000,
00068000,
00070000,
00078000,
00000000,
00000000,
00000000,
00060000,
00068000,
00070000,
00078000,
00080000,
00000000,
00000000,
00000000,
00068000,
00070000,
00078000,
00080000,
00088000,
00000000,
00000000,
00000000,
00070000,
00078000,
00080000,
00088000,
00090000,
00000000,
00000000,
00000000,
00000000,
00000000,
00000000,
00000000,
00000000,
00000000,
00000000,
00000000,
00000000,
00000000,
00000000,
00000000,
00000000,
00000000,
00000000,
00000000,
00000000,
00000000,
00000000,
00000000,
00000000,
00000000,
00000000,
00000000,
00058000,
00060000,
00068000,
00070000,
00078000,
00000000,
00000000,
00000000,
00060000,
00068000,
00070000,
00078000,
00080000,
00000000,
00000000,
00000000,
00068000,
00070000,
00078000,
00080000,
00088000,
00000000,
00000000,
00000000,
00070000,
00078000,
00080000,
00088000,
00090000,
00000000,
00000000,
00000000,
00078000,
00080000,
00088000,
00090000,
00098000,
00000000,
00000000,
00000000,
00000000,
00000000,
00000000,
00000000,
00000000,
00000000,
00000000,
00000000,
00000000,
00000000,
00000000,
00000000,
00000000,
00000000,
00000000,
00000000,
00000000,
00000000,
00000000,
00000000,
00000000,
00000000,
00000000,
00000000,
00060000,
00068000,
00070000,
00078000,
00080000,
00000000,
00000000,
00000000,
00068000,
00070000,
00078000,
00080000,
00088000,
00000000,
00000000,
00000000,
00070000,
00078000,
00080000,
00088000,
00090000,
00000000,
00000000,
00000000,
00078000,
00080000,
00088000,
00090000,
00098000,
00000000,
00000000,
00000000,
00080000,
00088000,
00090000,
00098000,
000a0000,
00000000,
00000000,
00000000,
00000000,
00000000,
00000000,
00000000,
00000000,
00000000,
00000000,
00000000,
00000000,
00000000,
00000000,
00000000,
00000000,
00000000,
00000000,
00000000,
00000000,
00000000,
00000000,
00000000,
00000000,
00000000,
00000000,
00000000,
00068000,
00070000,
00078000,
00080000,
00088000,
00000000,
00000000,
00000000,
00070000,
00078000,
00080000,
00088000,
00090000,
00000000,
00000000,
00000000,
00078000,
00080000,
00088000,
00090000,
00098000,
00000000,
00000000,
00000000,
00080000,
00088000,
00090000,
00098000,
000a0000,
00000000,
00000000,
00000000,
00088000,
00090000,
00098000,
000a0000,
000a8000,
00000000,
00000000,
00000000,
00000000,
00000000,
00000000,
00000000,
00000000,
00000000,
00000000,
00000000,
00000000,
00000000,
00000000,
00000000,
00000000,
00000000,
00000000,
00000000,
00000000,
00000000,
00000000,
00000000,
00000000,
00000000,
00000000,
00000000,
00070000,
00078000,
00080000,
00088000,
00090000,
00000000,
00000000,
00000000,
00078000,
00080000,
00088000,
00090000,
00098000,
00000000,
00000000,
00000000,
00080000,
00088000,
00090000,
00098000,
000a0000,
00000000,
00000000,
00000000,
00088000,
00090000,
00098000,
000a0000,
000a8000,
00000000,
00000000,
00000000,
00090000,
00098000,
000a0000,
000a8000,
000b0000,
00000000,
00000000,
00000000,
00000000,
00000000,
00000000,
00000000,
00000000,
00000000,
00000000,
00000000,
00000000,
00000000,
00000000,
00000000,
00000000,
00000000,
00000000,
00000000,
00000000,
00000000,
00000000,
00000000,
00000000,
00000000,
00000000,
00000000,
00078000,
00080000,
00088000,
00090000,
00098000,
00000000,
00000000,
00000000,
00080000,
00088000,
00090000,
00098000,
000a0000,
00000000,
00000000,
00000000,
00088000,
00090000,
00098000,
000a0000,
000a8000,
00000000,
00000000,
00000000,
00090000,
00098000,
000a0000,
000a8000,
000b0000,
00000000,
00000000,
00000000,
00098000,
000a0000,
000a8000,
000b0000,
000b8000,
00000000,
00000000,
00000000,
00000000,
00000000,
00000000,
00000000,
00000000,
00000000,
00000000,
00000000,
00000000,
00000000,
00000000,
00000000,
00000000,
00000000,
00000000,
00000000,
00000000,
00000000,
00000000,
00000000,
00000000,
00000000,
00000000,
00000000,
00080000,
00088000,
00090000,
00098000,
000a0000,
00000000,
00000000,
00000000,
00088000,
00090000,
00098000,
000a0000,
000a8000,
00000000,
00000000,
00000000,
00090000,
00098000,
000a0000,
000a8000,
000b0000,
00000000,
00000000,
00000000,
00098000,
000a0000,
000a8000,
000b0000,
000b8000,
00000000,
00000000,
00000000,
000a0000,
000a8000,
000b0000,
000b8000,
000c0000,
00000000,
00000000,
00000000,
00000000,
00000000,
00000000,
00000000,
00000000,
00000000,
00000000,
00000000,
00000000,
00000000,
00000000,
00000000,
00000000,
00000000,
00000000,
00000000,
00000000,
00000000,
00000000,
00000000,
00000000,
00000000,
00000000,
00000000,
00088000,
00090000,
00098000,
000a0000,
000a8000,
00000000,
00000000,
00000000,
00090000,
00098000,
000a0000,
000a8000,
000b0000,
00000000,
00000000,
00000000,
00098000,
000a0000,
000a8000,
000b0000,
000b8000,
00000000,
00000000,
00000000,
000a0000,
000a8000,
000b0000,
000b8000,
000c0000,
00000000,
00000000,
00000000,
000a8000,
000b0000,
000b8000,
000c0000,
000c8000,
00000000,
00000000,
00000000,
00000000,
00000000,
00000000,
00000000,
00000000,
00000000,
00000000,
00000000,
00000000,
00000000,
00000000,
00000000,
00000000,
00000000,
00000000,
00000000,
00000000,
00000000,
00000000,
00000000,
00000000,
00000000,
00000000,
00000000,
00058000,
00060000,
00068000,
00070000,
00078000,
00000000,
00000000,
00000000,
00060000,
00068000,
00070000,
00078000,
00080000,
00000000,
00000000,
00000000,
00068000,
00070000,
00078000,
00080000,
00088000,
00000000,
00000000,
00000000,
00070000,
00078000,
00080000,
00088000,
00090000,
00000000,
00000000,
00000000,
00078000,
00080000,
00088000,
00090000,
00098000,
00000000,
00000000,
00000000,
00000000,
00000000,
00000000,
00000000,
00000000,
00000000,
00000000,
00000000,
00000000,
00000000,
00000000,
00000000,
00000000,
00000000,
00000000,
00000000,
00000000,
00000000,
00000000,
00000000,
00000000,
00000000,
00000000,
00000000,
00060000,
00068000,
00070000,
00078000,
00080000,
00000000,
00000000,
00000000,
00068000,
00070000,
00078000,
00080000,
00088000,
00000000,
00000000,
00000000,
00070000,
00078000,
00080000,
00088000,
00090000,
00000000,
00000000,
00000000,
00078000,
00080000,
00088000,
00090000,
00098000,
00000000,
00000000,
00000000,
00080000,
00088000,
00090000,
00098000,
000a0000,
00000000,
00000000,
00000000,
00000000,
00000000,
00000000,
00000000,
00000000,
00000000,
00000000,
00000000,
00000000,
00000000,
00000000,
00000000,
00000000,
00000000,
00000000,
00000000,
00000000,
00000000,
00000000,
00000000,
00000000,
00000000,
00000000,
00000000,
00068000,
00070000,
00078000,
00080000,
00088000,
00000000,
00000000,
00000000,
00070000,
00078000,
00080000,
00088000,
00090000,
00000000,
00000000,
00000000,
00078000,
00080000,
00088000,
00090000,
00098000,
00000000,
00000000,
00000000,
00080000,
00088000,
00090000,
00098000,
000a0000,
00000000,
00000000,
00000000,
00088000,
00090000,
00098000,
000a0000,
000a8000,
00000000,
00000000,
00000000,
00000000,
00000000,
00000000,
00000000,
00000000,
00000000,
00000000,
00000000,
00000000,
00000000,
00000000,
00000000,
00000000,
00000000,
00000000,
00000000,
00000000,
00000000,
00000000,
00000000,
00000000,
00000000,
00000000,
00000000,
00070000,
00078000,
00080000,
00088000,
00090000,
00000000,
00000000,
00000000,
00078000,
00080000,
00088000,
00090000,
00098000,
00000000,
00000000,
00000000,
00080000,
00088000,
00090000,
00098000,
000a0000,
00000000,
00000000,
00000000,
00088000,
00090000,
00098000,
000a0000,
000a8000,
00000000,
00000000,
00000000,
00090000,
00098000,
000a0000,
000a8000,
000b0000,
00000000,
00000000,
00000000,
00000000,
00000000,
00000000,
00000000,
00000000,
00000000,
00000000,
00000000,
00000000,
00000000,
00000000,
00000000,
00000000,
00000000,
00000000,
00000000,
00000000,
00000000,
00000000,
00000000,
00000000,
00000000,
00000000,
00000000,
00078000,
00080000,
00088000,
00090000,
00098000,
00000000,
00000000,
00000000,
00080000,
00088000,
00090000,
00098000,
000a0000,
00000000,
00000000,
00000000,
00088000,
00090000,
00098000,
000a0000,
000a8000,
00000000,
00000000,
00000000,
00090000,
00098000,
000a0000,
000a8000,
000b0000,
00000000,
00000000,
00000000,
00098000,
000a0000,
000a8000,
000b0000,
000b8000,
00000000,
00000000,
00000000,
00000000,
00000000,
00000000,
00000000,
00000000,
00000000,
00000000,
00000000,
00000000,
00000000,
00000000,
00000000,
00000000,
00000000,
00000000,
00000000,
00000000,
00000000,
00000000,
00000000,
00000000,
00000000,
00000000,
00000000,
00080000,
00088000,
00090000,
00098000,
000a0000,
00000000,
00000000,
00000000,
00088000,
00090000,
00098000,
000a0000,
000a8000,
00000000,
00000000,
00000000,
00090000,
00098000,
000a0000,
000a8000,
000b0000,
00000000,
00000000,
00000000,
00098000,
000a0000,
000a8000,
000b0000,
000b8000,
00000000,
00000000,
00000000,
000a0000,
000a8000,
000b0000,
000b8000,
000c0000,
00000000,
00000000,
00000000,
00000000,
00000000,
00000000,
00000000,
00000000,
00000000,
00000000,
00000000,
00000000,
00000000,
00000000,
00000000,
00000000,
00000000,
00000000,
00000000,
00000000,
00000000,
00000000,
00000000,
00000000,
00000000,
00000000,
00000000,
00088000,
00090000,
00098000,
000a0000,
000a8000,
00000000,
00000000,
00000000,
00090000,
00098000,
000a0000,
000a8000,
000b0000,
00000000,
00000000,
00000000,
00098000,
000a0000,
000a8000,
000b0000,
000b8000,
00000000,
00000000,
00000000,
000a0000,
000a8000,
000b0000,
000b8000,
000c0000,
00000000,
00000000,
00000000,
000a8000,
000b0000,
000b8000,
000c0000,
000c8000,
00000000,
00000000,
00000000,
00000000,
00000000,
00000000,
00000000,
00000000,
00000000,
00000000,
00000000,
00000000,
00000000,
00000000,
00000000,
00000000,
00000000,
00000000,
00000000,
00000000,
00000000,
00000000,
00000000,
00000000,
00000000,
00000000,
00000000,
00090000,
00098000,
000a0000,
000a8000,
000b0000,
00000000,
00000000,
00000000,
00098000,
000a0000,
000a8000,
000b0000,
000b8000,
00000000,
00000000,
00000000,
000a0000,
000a8000,
000b0000,
000b8000,
000c0000,
00000000,
00000000,
00000000,
000a8000,
000b0000,
000b8000,
000c0000,
000c8000,
00000000,
00000000,
00000000,
000b0000,
000b8000,
000c0000,
000c8000,
000d0000,
00000000,
00000000,
00000000,
00000000,
00000000,
00000000,
00000000,
00000000,
00000000,
00000000,
00000000,
00000000,
00000000,
00000000,
00000000,
00000000,
00000000,
00000000,
00000000,
00000000,
00000000,
00000000,
00000000,
00000000,
00000000,
00000000,
00000000,
00060000,
00068000,
00070000,
00078000,
00080000,
00000000,
00000000,
00000000,
00068000,
00070000,
00078000,
00080000,
00088000,
00000000,
00000000,
00000000,
00070000,
00078000,
00080000,
00088000,
00090000,
00000000,
00000000,
00000000,
00078000,
00080000,
00088000,
00090000,
00098000,
00000000,
00000000,
00000000,
00080000,
00088000,
00090000,
00098000,
000a0000,
00000000,
00000000,
00000000,
00000000,
00000000,
00000000,
00000000,
00000000,
00000000,
00000000,
00000000,
00000000,
00000000,
00000000,
00000000,
00000000,
00000000,
00000000,
00000000,
00000000,
00000000,
00000000,
00000000,
00000000,
00000000,
00000000,
00000000,
00068000,
00070000,
00078000,
00080000,
00088000,
00000000,
00000000,
00000000,
00070000,
00078000,
00080000,
00088000,
00090000,
00000000,
00000000,
00000000,
00078000,
00080000,
00088000,
00090000,
00098000,
00000000,
00000000,
00000000,
00080000,
00088000,
00090000,
00098000,
000a0000,
00000000,
00000000,
00000000,
00088000,
00090000,
00098000,
000a0000,
000a8000,
00000000,
00000000,
00000000,
00000000,
00000000,
00000000,
00000000,
00000000,
00000000,
00000000,
00000000,
00000000,
00000000,
00000000,
00000000,
00000000,
00000000,
00000000,
00000000,
00000000,
00000000,
00000000,
00000000,
00000000,
00000000,
00000000,
00000000,
00070000,
00078000,
00080000,
00088000,
00090000,
00000000,
00000000,
00000000,
00078000,
00080000,
00088000,
00090000,
00098000,
00000000,
00000000,
00000000,
00080000,
00088000,
00090000,
00098000,
000a0000,
00000000,
00000000,
00000000,
00088000,
00090000,
00098000,
000a0000,
000a8000,
00000000,
00000000,
00000000,
00090000,
00098000,
000a0000,
000a8000,
000b0000,
00000000,
00000000,
00000000,
00000000,
00000000,
00000000,
00000000,
00000000,
00000000,
00000000,
00000000,
00000000,
00000000,
00000000,
00000000,
00000000,
00000000,
00000000,
00000000,
00000000,
00000000,
00000000,
00000000,
00000000,
00000000,
00000000,
00000000,
00078000,
00080000,
00088000,
00090000,
00098000,
00000000,
00000000,
00000000,
00080000,
00088000,
00090000,
00098000,
000a0000,
00000000,
00000000,
00000000,
00088000,
00090000,
00098000,
000a0000,
000a8000,
00000000,
00000000,
00000000,
00090000,
00098000,
000a0000,
000a8000,
000b0000,
00000000,
00000000,
00000000,
00098000,
000a0000,
000a8000,
000b0000,
000b8000,
00000000,
00000000,
00000000,
00000000,
00000000,
00000000,
00000000,
00000000,
00000000,
00000000,
00000000,
00000000,
00000000,
00000000,
00000000,
00000000,
00000000,
00000000,
00000000,
00000000,
00000000,
00000000,
00000000,
00000000,
00000000,
00000000,
00000000,
00080000,
00088000,
00090000,
00098000,
000a0000,
00000000,
00000000,
00000000,
00088000,
00090000,
00098000,
000a0000,
000a8000,
00000000,
00000000,
00000000,
00090000,
00098000,
000a0000,
000a8000,
000b0000,
00000000,
00000000,
00000000,
00098000,
000a0000,
000a8000,
000b0000,
000b8000,
00000000,
00000000,
00000000,
000a0000,
000a8000,
000b0000,
000b8000,
000c0000,
00000000,
00000000,
00000000,
00000000,
00000000,
00000000,
00000000,
00000000,
00000000,
00000000,
00000000,
00000000,
00000000,
00000000,
00000000,
00000000,
00000000,
00000000,
00000000,
00000000,
00000000,
00000000,
00000000,
00000000,
00000000,
00000000,
00000000,
00088000,
00090000,
00098000,
000a0000,
000a8000,
00000000,
00000000,
00000000,
00090000,
00098000,
000a0000,
000a8000,
000b0000,
00000000,
00000000,
00000000,
00098000,
000a0000,
000a8000,
000b0000,
000b8000,
00000000,
00000000,
00000000,
000a0000,
000a8000,
000b0000,
000b8000,
000c0000,
00000000,
00000000,
00000000,
000a8000,
000b0000,
000b8000,
000c0000,
000c8000,
00000000,
00000000,
00000000,
00000000,
00000000,
00000000,
00000000,
00000000,
00000000,
00000000,
00000000,
00000000,
00000000,
00000000,
00000000,
00000000,
00000000,
00000000,
00000000,
00000000,
00000000,
00000000,
00000000,
00000000,
00000000,
00000000,
00000000,
00090000,
00098000,
000a0000,
000a8000,
000b0000,
00000000,
00000000,
00000000,
00098000,
000a0000,
000a8000,
000b0000,
000b8000,
00000000,
00000000,
00000000,
000a0000,
000a8000,
000b0000,
000b8000,
000c0000,
00000000,
00000000,
00000000,
000a8000,
000b0000,
000b8000,
000c0000,
000c8000,
00000000,
00000000,
00000000,
000b0000,
000b8000,
000c0000,
000c8000,
000d0000,
00000000,
00000000,
00000000,
00000000,
00000000,
00000000,
00000000,
00000000,
00000000,
00000000,
00000000,
00000000,
00000000,
00000000,
00000000,
00000000,
00000000,
00000000,
00000000,
00000000,
00000000,
00000000,
00000000,
00000000,
00000000,
00000000,
00000000,
00098000,
000a0000,
000a8000,
000b0000,
000b8000,
00000000,
00000000,
00000000,
000a0000,
000a8000,
000b0000,
000b8000,
000c0000,
00000000,
00000000,
00000000,
000a8000,
000b0000,
000b8000,
000c0000,
000c8000,
00000000,
00000000,
00000000,
000b0000,
000b8000,
000c0000,
000c8000,
000d0000,
00000000,
00000000,
00000000,
000b8000,
000c0000,
000c8000,
000d0000,
000d8000,
00000000,
00000000,
00000000,
00000000,
00000000,
00000000,
00000000,
00000000,
00000000,
00000000,
00000000,
00000000,
00000000,
00000000,
00000000,
00000000,
00000000,
00000000,
00000000,
00000000,
00000000,
00000000,
00000000,
00000000,
00000000,
00000000,
00000000,
00068000,
00070000,
00078000,
00080000,
00088000,
00000000,
00000000,
00000000,
00070000,
00078000,
00080000,
00088000,
00090000,
00000000,
00000000,
00000000,
00078000,
00080000,
00088000,
00090000,
00098000,
00000000,
00000000,
00000000,
00080000,
00088000,
00090000,
00098000,
000a0000,
00000000,
00000000,
00000000,
00088000,
00090000,
00098000,
000a0000,
000a8000,
00000000,
00000000,
00000000,
00000000,
00000000,
00000000,
00000000,
00000000,
00000000,
00000000,
00000000,
00000000,
00000000,
00000000,
00000000,
00000000,
00000000,
00000000,
00000000,
00000000,
00000000,
00000000,
00000000,
00000000,
00000000,
00000000,
00000000,
00070000,
00078000,
00080000,
00088000,
00090000,
00000000,
00000000,
00000000,
00078000,
00080000,
00088000,
00090000,
00098000,
00000000,
00000000,
00000000,
00080000,
00088000,
00090000,
00098000,
000a0000,
00000000,
00000000,
00000000,
00088000,
00090000,
00098000,
000a0000,
000a8000,
00000000,
00000000,
00000000,
00090000,
00098000,
000a0000,
000a8000,
000b0000,
00000000,
00000000,
00000000,
00000000,
00000000,
00000000,
00000000,
00000000,
00000000,
00000000,
00000000,
00000000,
00000000,
00000000,
00000000,
00000000,
00000000,
00000000,
00000000,
00000000,
00000000,
00000000,
00000000,
00000000,
00000000,
00000000,
00000000,
00078000,
00080000,
00088000,
00090000,
00098000,
00000000,
00000000,
00000000,
00080000,
00088000,
00090000,
00098000,
000a0000,
00000000,
00000000,
00000000,
00088000,
00090000,
00098000,
000a0000,
000a8000,
00000000,
00000000,
00000000,
00090000,
00098000,
000a0000,
000a8000,
000b0000,
00000000,
00000000,
00000000,
00098000,
000a0000,
000a8000,
000b0000,
000b8000,
00000000,
00000000,
00000000,
00000000,
00000000,
00000000,
00000000,
00000000,
00000000,
00000000,
00000000,
00000000,
00000000,
00000000,
00000000,
00000000,
00000000,
00000000,
00000000,
00000000,
00000000,
00000000,
00000000,
00000000,
00000000,
00000000,
00000000,
00080000,
00088000,
00090000,
00098000,
000a0000,
00000000,
00000000,
00000000,
00088000,
00090000,
00098000,
000a0000,
000a8000,
00000000,
00000000,
00000000,
00090000,
00098000,
000a0000,
000a8000,
000b0000,
00000000,
00000000,
00000000,
00098000,
000a0000,
000a8000,
000b0000,
000b8000,
00000000,
00000000,
00000000,
000a0000,
000a8000,
000b0000,
000b8000,
000c0000,
00000000,
00000000,
00000000,
00000000,
00000000,
00000000,
00000000,
00000000,
00000000,
00000000,
00000000,
00000000,
00000000,
00000000,
00000000,
00000000,
00000000,
00000000,
00000000,
00000000,
00000000,
00000000,
00000000,
00000000,
00000000,
00000000,
00000000,
00088000,
00090000,
00098000,
000a0000,
000a8000,
00000000,
00000000,
00000000,
00090000,
00098000,
000a0000,
000a8000,
000b0000,
00000000,
00000000,
00000000,
00098000,
000a0000,
000a8000,
000b0000,
000b8000,
00000000,
00000000,
00000000,
000a0000,
000a8000,
000b0000,
000b8000,
000c0000,
00000000,
00000000,
00000000,
000a8000,
000b0000,
000b8000,
000c0000,
000c8000,
00000000,
00000000,
00000000,
00000000,
00000000,
00000000,
00000000,
00000000,
00000000,
00000000,
00000000,
00000000,
00000000,
00000000,
00000000,
00000000,
00000000,
00000000,
00000000,
00000000,
00000000,
00000000,
00000000,
00000000,
00000000,
00000000,
00000000,
00090000,
00098000,
000a0000,
000a8000,
000b0000,
00000000,
00000000,
00000000,
00098000,
000a0000,
000a8000,
000b0000,
000b8000,
00000000,
00000000,
00000000,
000a0000,
000a8000,
000b0000,
000b8000,
000c0000,
00000000,
00000000,
00000000,
000a8000,
000b0000,
000b8000,
000c0000,
000c8000,
00000000,
00000000,
00000000,
000b0000,
000b8000,
000c0000,
000c8000,
000d0000,
00000000,
00000000,
00000000,
00000000,
00000000,
00000000,
00000000,
00000000,
00000000,
00000000,
00000000,
00000000,
00000000,
00000000,
00000000,
00000000,
00000000,
00000000,
00000000,
00000000,
00000000,
00000000,
00000000,
00000000,
00000000,
00000000,
00000000,
00098000,
000a0000,
000a8000,
000b0000,
000b8000,
00000000,
00000000,
00000000,
000a0000,
000a8000,
000b0000,
000b8000,
000c0000,
00000000,
00000000,
00000000,
000a8000,
000b0000,
000b8000,
000c0000,
000c8000,
00000000,
00000000,
00000000,
000b0000,
000b8000,
000c0000,
000c8000,
000d0000,
00000000,
00000000,
00000000,
000b8000,
000c0000,
000c8000,
000d0000,
000d8000,
00000000,
00000000,
00000000,
00000000,
00000000,
00000000,
00000000,
00000000,
00000000,
00000000,
00000000,
00000000,
00000000,
00000000,
00000000,
00000000,
00000000,
00000000,
00000000,
00000000,
00000000,
00000000,
00000000,
00000000,
00000000,
00000000,
00000000,
000a0000,
000a8000,
000b0000,
000b8000,
000c0000,
00000000,
00000000,
00000000,
000a8000,
000b0000,
000b8000,
000c0000,
000c8000,
00000000,
00000000,
00000000,
000b0000,
000b8000,
000c0000,
000c8000,
000d0000,
00000000,
00000000,
00000000,
000b8000,
000c0000,
000c8000,
000d0000,
000d8000,
00000000,
00000000,
00000000,
000c0000,
000c8000,
000d0000,
000d8000,
000e0000,
00000000,
00000000,
00000000,
00000000,
00000000,
00000000,
00000000,
00000000,
00000000,
00000000,
00000000,
00000000,
00000000,
00000000,
00000000,
00000000,
00000000,
00000000,
00000000,
00000000,
00000000,
00000000,
00000000,
00000000,
00000000,
00000000,
00000000,
00070000,
00078000,
00080000,
00088000,
00090000,
00000000,
00000000,
00000000,
00078000,
00080000,
00088000,
00090000,
00098000,
00000000,
00000000,
00000000,
00080000,
00088000,
00090000,
00098000,
000a0000,
00000000,
00000000,
00000000,
00088000,
00090000,
00098000,
000a0000,
000a8000,
00000000,
00000000,
00000000,
00090000,
00098000,
000a0000,
000a8000,
000b0000,
00000000,
00000000,
00000000,
00000000,
00000000,
00000000,
00000000,
00000000,
00000000,
00000000,
00000000,
00000000,
00000000,
00000000,
00000000,
00000000,
00000000,
00000000,
00000000,
00000000,
00000000,
00000000,
00000000,
00000000,
00000000,
00000000,
00000000,
00078000,
00080000,
00088000,
00090000,
00098000,
00000000,
00000000,
00000000,
00080000,
00088000,
00090000,
00098000,
000a0000,
00000000,
00000000,
00000000,
00088000,
00090000,
00098000,
000a0000,
000a8000,
00000000,
00000000,
00000000,
00090000,
00098000,
000a0000,
000a8000,
000b0000,
00000000,
00000000,
00000000,
00098000,
000a0000,
000a8000,
000b0000,
000b8000,
00000000,
00000000,
00000000,
00000000,
00000000,
00000000,
00000000,
00000000,
00000000,
00000000,
00000000,
00000000,
00000000,
00000000,
00000000,
00000000,
00000000,
00000000,
00000000,
00000000,
00000000,
00000000,
00000000,
00000000,
00000000,
00000000,
00000000,
00080000,
00088000,
00090000,
00098000,
000a0000,
00000000,
00000000,
00000000,
00088000,
00090000,
00098000,
000a0000,
000a8000,
00000000,
00000000,
00000000,
00090000,
00098000,
000a0000,
000a8000,
000b0000,
00000000,
00000000,
00000000,
00098000,
000a0000,
000a8000,
000b0000,
000b8000,
00000000,
00000000,
00000000,
000a0000,
000a8000,
000b0000,
000b8000,
000c0000,
00000000,
00000000,
00000000,
00000000,
00000000,
00000000,
00000000,
00000000,
00000000,
00000000,
00000000,
00000000,
00000000,
00000000,
00000000,
00000000,
00000000,
00000000,
00000000,
00000000,
00000000,
00000000,
00000000,
00000000,
00000000,
00000000,
00000000,
00088000,
00090000,
00098000,
000a0000,
000a8000,
00000000,
00000000,
00000000,
00090000,
00098000,
000a0000,
000a8000,
000b0000,
00000000,
00000000,
00000000,
00098000,
000a0000,
000a8000,
000b0000,
000b8000,
00000000,
00000000,
00000000,
000a0000,
000a8000,
000b0000,
000b8000,
000c0000,
00000000,
00000000,
00000000,
000a8000,
000b0000,
000b8000,
000c0000,
000c8000,
00000000,
00000000,
00000000,
00000000,
00000000,
00000000,
00000000,
00000000,
00000000,
00000000,
00000000,
00000000,
00000000,
00000000,
00000000,
00000000,
00000000,
00000000,
00000000,
00000000,
00000000,
00000000,
00000000,
00000000,
00000000,
00000000,
00000000,
00090000,
00098000,
000a0000,
000a8000,
000b0000,
00000000,
00000000,
00000000,
00098000,
000a0000,
000a8000,
000b0000,
000b8000,
00000000,
00000000,
00000000,
000a0000,
000a8000,
000b0000,
000b8000,
000c0000,
00000000,
00000000,
00000000,
000a8000,
000b0000;